unsigned char model_data_tflite[] = {
  0x1c, 0x00, 0x00, 0x00, 0x54, 0x46, 0x4c, 0x33, 0x00, 0x00, 0x12, 0x00,
  0x1c, 0x00, 0x04, 0x00, 0x08, 0x00, 0x0c, 0x00, 0x10, 0x00, 0x14, 0x00,
  0x00, 0x00, 0x18, 0x00, 0x12, 0x00, 0x00, 0x00, 0x03, 0x00, 0x00, 0x00,
  0x6c, 0x16, 0x00, 0x00, 0xf8, 0x0e, 0x00, 0x00, 0xe0, 0x0e, 0x00, 0x00,
  0x3c, 0x00, 0x00, 0x00, 0x04, 0x00, 0x00, 0x00, 0x01, 0x00, 0x00, 0x00,
  0x0c, 0x00, 0x00, 0x00, 0x08, 0x00, 0x0c, 0x00, 0x04, 0x00, 0x08, 0x00,
  0x08, 0x00, 0x00, 0x00, 0x08, 0x00, 0x00, 0x00, 0x10, 0x00, 0x00, 0x00,
  0x13, 0x00, 0x00, 0x00, 0x6d, 0x69, 0x6e, 0x5f, 0x72, 0x75, 0x6e, 0x74,
  0x69, 0x6d, 0x65, 0x5f, 0x76, 0x65, 0x72, 0x73, 0x69, 0x6f, 0x6e, 0x00,
  0x11, 0x00, 0x00, 0x00, 0x8c, 0x0e, 0x00, 0x00, 0x78, 0x0e, 0x00, 0x00,
  0x5c, 0x0e, 0x00, 0x00, 0x18, 0x0e, 0x00, 0x00, 0xc4, 0x0d, 0x00, 0x00,
  0x30, 0x0d, 0x00, 0x00, 0x1c, 0x0b, 0x00, 0x00, 0x08, 0x03, 0x00, 0x00,
  0xf4, 0x00, 0x00, 0x00, 0xa0, 0x00, 0x00, 0x00, 0x94, 0x00, 0x00, 0x00,
  0x80, 0x00, 0x00, 0x00, 0x6c, 0x00, 0x00, 0x00, 0x58, 0x00, 0x00, 0x00,
  0x44, 0x00, 0x00, 0x00, 0x30, 0x00, 0x00, 0x00, 0x04, 0x00, 0x00, 0x00,
  0xe6, 0xf1, 0xff, 0xff, 0x04, 0x00, 0x00, 0x00, 0x10, 0x00, 0x00, 0x00,
  0x31, 0x2e, 0x31, 0x34, 0x2e, 0x30, 0x00, 0x00, 0x00, 0x00, 0x00, 0x00,
  0x00, 0x00, 0x00, 0x00, 0x00, 0x00, 0x00, 0x00, 0x00, 0x00, 0x00, 0x00,
  0x00, 0x00, 0x00, 0x00, 0x74, 0xea, 0xff, 0xff, 0x00, 0x00, 0x00, 0x00,
  0x00, 0x00, 0x00, 0x00, 0x00, 0x00, 0x00, 0x00, 0x84, 0xea, 0xff, 0xff,
  0x00, 0x00, 0x00, 0x00, 0x00, 0x00, 0x00, 0x00, 0x00, 0x00, 0x00, 0x00,
  0x94, 0xea, 0xff, 0xff, 0x00, 0x00, 0x00, 0x00, 0x00, 0x00, 0x00, 0x00,
  0x00, 0x00, 0x00, 0x00, 0xa4, 0xea, 0xff, 0xff, 0x00, 0x00, 0x00, 0x00,
  0x00, 0x00, 0x00, 0x00, 0x00, 0x00, 0x00, 0x00, 0xb4, 0xea, 0xff, 0xff,
  0x00, 0x00, 0x00, 0x00, 0x00, 0x00, 0x00, 0x00, 0x00, 0x00, 0x00, 0x00,
  0xc4, 0xea, 0xff, 0xff, 0x00, 0x00, 0x00, 0x00, 0x66, 0xf2, 0xff, 0xff,
  0x04, 0x00, 0x00, 0x00, 0x40, 0x00, 0x00, 0x00, 0x6b, 0x6e, 0xa0, 0x3e,
  0xe0, 0x27, 0xd0, 0xbf, 0x7c, 0x57, 0xca, 0xbf, 0xb6, 0x9d, 0xc0, 0xbf,
  0x66, 0x04, 0x56, 0x40, 0x19, 0x91, 0xb7, 0x3f, 0x51, 0xcb, 0xd1, 0x3e,
  0x51, 0xb9, 0x89, 0xbf, 0x20, 0x23, 0x91, 0x3d, 0xbb, 0xd2, 0x1b, 0x40,
  0x9b, 0x32, 0xee, 0xbf, 0x25, 0x5f, 0x08, 0x40, 0x5a, 0xee, 0xdc, 0x3f,
  0xcc, 0x87, 0x56, 0x3f, 0x74, 0xd4, 0x2f, 0x3e, 0xcc, 0x75, 0x0a, 0x40,
  0x00, 0x00, 0x00, 0x00, 0xb6, 0xf2, 0xff, 0xff, 0x04, 0x00, 0x00, 0x00,
  0x00, 0x02, 0x00, 0x00, 0x54, 0x32, 0xd0, 0x3e, 0x00, 0xb9, 0xc6, 0xbb,
  0xcf, 0xf6, 0xc3, 0x3e, 0xc0, 0x03, 0xb1, 0x3e, 0x76, 0x54, 0x70, 0xbe,
  0x80, 0x41, 0x4a, 0xbe, 0xc1, 0xc1, 0xf0, 0xbe, 0x71, 0xe2, 0xc7, 0xbe,
  0x0d, 0x85, 0x3f, 0xbe, 0xa9, 0x50, 0xc9, 0xbe, 0xdc, 0x35, 0xb0, 0xbe,
  0x38, 0x90, 0x27, 0x3d, 0xb0, 0x30, 0x82, 0x3d, 0xa4, 0x8b, 0x74, 0x3e,
  0xe0, 0x38, 0x0c, 0xbd, 0x04, 0x9d, 0xee, 0xbe, 0x4c, 0x10, 0xbb, 0xbe,
  0x9c, 0x75, 0xe1, 0xbe, 0x86, 0x9c, 0x10, 0xbf, 0xe6, 0x16, 0xa9, 0xbe,
  0xcb, 0x8d, 0x9d, 0x3d, 0xa0, 0x12, 0xee, 0xbe, 0x6b, 0x77, 0xb1, 0xbe,
  0x6b, 0x02, 0xa6, 0x3e, 0xed, 0x83, 0x23, 0x3f, 0xd8, 0x25, 0xd0, 0x3e,
  0xb8, 0x1d, 0x10, 0x3e, 0x3b, 0x26, 0xaa, 0x3e, 0x6c, 0x55, 0xc7, 0x3e,
  0xf7, 0xce, 0xb3, 0x3d, 0x9e, 0x15, 0x1c, 0xbe, 0x5c, 0x5f, 0x9d, 0x3e,
  0x60, 0x90, 0xdd, 0x3d, 0xc0, 0x3c, 0xbc, 0x3c, 0x4f, 0x3b, 0x73, 0x3f,
  0x6d, 0x10, 0x4c, 0x3e, 0x25, 0xd2, 0x92, 0xbd, 0x9c, 0x3b, 0xd5, 0xbe,
  0x13, 0xb6, 0xd2, 0x3e, 0xe1, 0xc1, 0x2d, 0xbf, 0x39, 0x7f, 0xdc, 0xbd,
  0x6a, 0x08, 0xc6, 0xbe, 0x28, 0x27, 0x8d, 0x3e, 0xd8, 0x65, 0x5f, 0x3e,
  0xd0, 0x75, 0x5b, 0x3e, 0x3b, 0x61, 0xda, 0xbe, 0x09, 0x57, 0x93, 0xbe,
  0x98, 0x17, 0xbd, 0xbe, 0xd0, 0x48, 0x4d, 0x3e, 0x50, 0xe0, 0xa8, 0xbd,
  0x57, 0xe7, 0x7d, 0xbf, 0xdd, 0x5f, 0x8b, 0x3e, 0x9b, 0x3c, 0xde, 0x3e,
  0xc0, 0x45, 0xe9, 0xbe, 0x90, 0x91, 0x33, 0xbe, 0x22, 0xc0, 0x80, 0xbe,
  0x6c, 0xee, 0x6b, 0x3f, 0x8e, 0x13, 0x05, 0xbe, 0x70, 0x7e, 0x9b, 0xbd,
  0x54, 0xf3, 0x34, 0x3e, 0x94, 0x93, 0xa1, 0x3e, 0x46, 0xd6, 0x99, 0x3e,
  0x63, 0x40, 0x1b, 0xbe, 0xac, 0xcb, 0xd0, 0x3e, 0xb0, 0xb5, 0x9a, 0xbe,
  0x00, 0x85, 0xa1, 0xbb, 0x38, 0x8a, 0x6b, 0x3e, 0xeb, 0x45, 0xbe, 0xbe,
  0x6c, 0x9e, 0x88, 0xbe, 0x58, 0xb8, 0x85, 0x3e, 0xdb, 0x2a, 0xa9, 0xbd,
  0xd3, 0x20, 0x90, 0x3e, 0x8c, 0x1e, 0x36, 0xbf, 0xd2, 0x50, 0xcf, 0x3e,
  0xf0, 0x1c, 0xa0, 0x3e, 0xbd, 0x45, 0x41, 0xbe, 0x30, 0x80, 0x06, 0xbe,
  0x62, 0x39, 0xbb, 0xbf, 0x27, 0x1b, 0xb0, 0x3e, 0x80, 0x4e, 0xd0, 0x3c,
  0x30, 0x3e, 0xb7, 0xbd, 0x84, 0x33, 0x96, 0x3e, 0xaa, 0x9c, 0x23, 0x3e,
  0xca, 0xd3, 0x9a, 0xbd, 0x29, 0x6d, 0x02, 0x3f, 0x24, 0x1c, 0xd8, 0xbe,
  0x67, 0x45, 0x0b, 0xbc, 0x71, 0x9a, 0x6f, 0x3e, 0x5f, 0x05, 0x0d, 0x3d,
  0x2b, 0x2c, 0xc7, 0x3d, 0x44, 0x82, 0xdc, 0x3e, 0x37, 0xf6, 0xee, 0x3e,
  0x38, 0x0c, 0x15, 0x3e, 0x79, 0x8e, 0xa0, 0xbf, 0xef, 0x04, 0x2c, 0x3e,
  0x10, 0xfb, 0x38, 0x3e, 0x00, 0xb4, 0xed, 0x3c, 0x98, 0x94, 0x83, 0x3e,
  0x01, 0x2b, 0xc1, 0xbe, 0x98, 0x77, 0x8c, 0x3d, 0x5f, 0x92, 0x27, 0x3d,
  0x88, 0xba, 0x74, 0xbe, 0xd7, 0x3e, 0x09, 0xbe, 0xf4, 0x19, 0x56, 0x3e,
  0x97, 0x43, 0x45, 0xbd, 0x8c, 0x68, 0x64, 0xbe, 0x9c, 0x9a, 0xd6, 0xbe,
  0xe3, 0x5b, 0xe2, 0x3e, 0x70, 0x61, 0x93, 0xbd, 0x0a, 0x70, 0x9f, 0x3d,
  0x92, 0x54, 0x95, 0xbe, 0x60, 0xc1, 0x1e, 0xbe, 0x70, 0xdc, 0xf2, 0x3e,
  0x20, 0x28, 0x68, 0x3d, 0xa5, 0x56, 0x5b, 0xbf, 0xb9, 0xfd, 0x83, 0xbe,
  0x30, 0xff, 0xab, 0x3c, 0xb4, 0xee, 0x99, 0x3e, 0xea, 0x30, 0xaa, 0xbe,
  0xe3, 0xce, 0x80, 0x3e, 0x6c, 0xd0, 0x13, 0x3f, 0xf3, 0xa5, 0x30, 0x3e,
  0xbc, 0x48, 0xea, 0xbe, 0x41, 0x86, 0x88, 0xbe, 0x00, 0xb6, 0xc6, 0xbe,
  0x8d, 0x0c, 0x82, 0x3e, 0x55, 0xae, 0xc4, 0x3d, 0xdc, 0xad, 0xca, 0x3e,
  0x00, 0x00, 0x00, 0x00, 0xc6, 0xf4, 0xff, 0xff, 0x04, 0x00, 0x00, 0x00,
  0x00, 0x08, 0x00, 0x00, 0xbe, 0x9a, 0x96, 0xbe, 0x10, 0xbe, 0x3c, 0xbe,
  0x7e, 0xb8, 0xd6, 0xbd, 0x07, 0x9b, 0x36, 0xbe, 0x34, 0x98, 0xcf, 0xbd,
  0xfc, 0xa2, 0x9d, 0x3d, 0xc2, 0xac, 0xa8, 0xbe, 0x5a, 0xfc, 0x55, 0x3e,
  0xd9, 0x20, 0x97, 0x3e, 0x9a, 0xc6, 0x82, 0xbe, 0x1a, 0x80, 0x06, 0x3e,
  0x18, 0xcf, 0xe4, 0x3d, 0xb6, 0x9e, 0x2e, 0x3e, 0x58, 0x44, 0x97, 0x3d,
  0x0e, 0x3d, 0x9e, 0xbe, 0xc0, 0x86, 0x1d, 0x3d, 0xd0, 0xf0, 0x1a, 0x3d,
  0x68, 0x89, 0x1c, 0x3d, 0x2f, 0x47, 0x89, 0xbe, 0x3f, 0xb1, 0xaa, 0x3e,
  0xff, 0x18, 0x99, 0xbe, 0xe6, 0x47, 0x83, 0xbe, 0x5b, 0x4f, 0x38, 0xbe,
  0x97, 0xff, 0x84, 0xbe, 0xed, 0x09, 0x8c, 0xbe, 0x63, 0xf3, 0x98, 0x3e,
  0x0c, 0x2a, 0xc1, 0x3d, 0xae, 0x97, 0x66, 0x3e, 0x37, 0x58, 0x45, 0xbe,
  0xba, 0x68, 0xaf, 0xbe, 0x2c, 0x00, 0x0c, 0xbe, 0xb4, 0xa5, 0xcb, 0xbd,
  0x34, 0xbb, 0xc7, 0x3d, 0xc6, 0x21, 0x26, 0x3e, 0x1a, 0xaa, 0xdf, 0xbd,
  0xb0, 0x69, 0x6a, 0xbd, 0x2f, 0x3c, 0x04, 0xbe, 0x4f, 0x8e, 0xb4, 0x3e,
  0x14, 0x94, 0x01, 0x3e, 0x00, 0x7a, 0x17, 0xbe, 0x40, 0xe9, 0x9d, 0xbd,
  0x40, 0xdf, 0xd5, 0xbb, 0xe6, 0x6e, 0x1a, 0x3e, 0x98, 0x1a, 0xa4, 0xbe,
  0xb0, 0xb5, 0xb0, 0x3d, 0xac, 0x62, 0x77, 0xbe, 0x34, 0xc5, 0xc5, 0x3d,
  0xea, 0xd1, 0x2e, 0xbe, 0x22, 0x60, 0x44, 0x3e, 0x8e, 0x08, 0x17, 0xbe,
  0x00, 0xe8, 0x79, 0xbd, 0xb2, 0x55, 0xb0, 0xbe, 0x4a, 0x66, 0x0a, 0x3e,
  0xa1, 0x81, 0x9d, 0x3e, 0x16, 0xfa, 0x4b, 0x3e, 0x75, 0x8a, 0x4f, 0xbe,
  0x4b, 0xad, 0x88, 0x3e, 0x05, 0x6e, 0xaa, 0x3e, 0x62, 0x5d, 0x4e, 0xbe,
  0x1a, 0x9e, 0x96, 0xbe, 0xfa, 0x1b, 0x4b, 0x3e, 0xb0, 0x3f, 0xca, 0xbd,
  0x68, 0x3b, 0x11, 0x3e, 0xd0, 0x31, 0xf7, 0x3d, 0xa7, 0xbe, 0x7b, 0x3e,
  0xf0, 0xfa, 0xb8, 0xbe, 0xb6, 0x45, 0xb6, 0xbe, 0x93, 0x51, 0xa5, 0x3d,
  0xf3, 0x57, 0xb2, 0xbe, 0x16, 0x8a, 0x83, 0xbd, 0xde, 0xd4, 0xb4, 0xbe,
  0xf2, 0xf4, 0x00, 0xbe, 0xb9, 0x01, 0x3f, 0xbe, 0x7c, 0x19, 0xfa, 0x3e,
  0x05, 0x24, 0x85, 0x3e, 0xa5, 0xb5, 0x7b, 0x3e, 0xad, 0xb8, 0x5a, 0xbe,
  0xe8, 0x26, 0x11, 0x3d, 0x29, 0xff, 0x51, 0x3e, 0x92, 0x0e, 0xad, 0xbe,
  0x0e, 0x93, 0x17, 0x3e, 0xab, 0xf7, 0xa3, 0x3d, 0xd5, 0xbc, 0x46, 0x3e,
  0xf0, 0x12, 0xa8, 0x3e, 0x2a, 0x68, 0x20, 0x3e, 0x77, 0x39, 0x0e, 0xbd,
  0x06, 0xa5, 0x74, 0xbe, 0xbb, 0x94, 0x81, 0x3e, 0x7b, 0x6c, 0x97, 0x3e,
  0x74, 0x0a, 0x75, 0xbe, 0xd1, 0x40, 0xc9, 0x3e, 0xc2, 0xc6, 0x3a, 0xbd,
  0xfa, 0xcf, 0x4c, 0xbe, 0x10, 0xcc, 0x20, 0xbe, 0x24, 0x1b, 0x38, 0xbe,
  0x97, 0xea, 0x6b, 0x3d, 0x3e, 0x8e, 0x99, 0xbe, 0xa8, 0xd7, 0xa1, 0x3e,
  0x68, 0xc0, 0x79, 0xbd, 0x11, 0x64, 0x51, 0xbe, 0x37, 0xa9, 0x28, 0xbd,
  0x2b, 0xac, 0xb3, 0x3e, 0xa2, 0xd4, 0x2d, 0x3e, 0x8d, 0x5f, 0x2b, 0xbe,
  0x66, 0x59, 0xad, 0x3e, 0x0b, 0x99, 0xa7, 0x3e, 0x7d, 0x86, 0x9d, 0xbe,
  0x70, 0x4e, 0xa5, 0xbe, 0xfa, 0x87, 0xbf, 0xbd, 0x90, 0xd2, 0xba, 0x3c,
  0xfd, 0xea, 0x35, 0x3e, 0x48, 0x6f, 0x88, 0x3d, 0x84, 0x14, 0xc3, 0xbd,
  0x6d, 0x2a, 0x8e, 0xbe, 0x81, 0xf9, 0x4c, 0xbe, 0xd6, 0xdb, 0xcc, 0x3e,
  0x00, 0x0e, 0x08, 0x3a, 0x71, 0x4f, 0x66, 0xbe, 0x43, 0x08, 0x2c, 0xbe,
  0x69, 0x01, 0x9f, 0x3e, 0xc3, 0xa7, 0x67, 0xbe, 0xc2, 0x27, 0x9f, 0x3d,
  0xb3, 0x28, 0x0f, 0xbe, 0x45, 0x5d, 0xe7, 0x3d, 0xbe, 0x8a, 0x42, 0x3e,
  0x4b, 0x34, 0x8d, 0x3d, 0xc3, 0x0a, 0x8d, 0x3e, 0x18, 0x36, 0xde, 0x3d,
  0x6b, 0xd2, 0xa9, 0x3c, 0x41, 0x52, 0x92, 0xbe, 0xa3, 0xf7, 0xb5, 0xbb,
  0xb5, 0x1d, 0xa7, 0x3d, 0x40, 0xf5, 0xf8, 0x3d, 0x21, 0xdb, 0x6d, 0x3d,
  0x7a, 0xef, 0x44, 0xbe, 0x55, 0x6a, 0xb9, 0xbe, 0xe5, 0x50, 0x41, 0xbd,
  0xec, 0x64, 0x1c, 0x3e, 0xff, 0x42, 0x42, 0xbe, 0x27, 0xfd, 0x52, 0xbe,
  0x1d, 0x18, 0xbf, 0xbe, 0x18, 0x84, 0x64, 0xbe, 0x29, 0x16, 0x07, 0xbe,
  0xbb, 0x6d, 0x4b, 0xbe, 0xa5, 0xdc, 0xab, 0x3e, 0xda, 0x28, 0x5a, 0xbd,
  0x2c, 0x0f, 0xa3, 0x3d, 0x03, 0xfd, 0x13, 0x3e, 0xc0, 0x56, 0xbf, 0x3d,
  0x3b, 0x35, 0xaf, 0xbd, 0xa8, 0xc8, 0x28, 0x3e, 0xfa, 0x86, 0xab, 0xbe,
  0x4f, 0xd1, 0x96, 0x3e, 0x59, 0xf3, 0x94, 0x3e, 0x0b, 0x33, 0xe1, 0xbd,
  0x40, 0x51, 0x75, 0x3d, 0xc5, 0x0c, 0x9f, 0x3e, 0x59, 0xc7, 0xae, 0xbd,
  0x1a, 0x52, 0x33, 0xbe, 0xd0, 0x54, 0xfe, 0x3d, 0x88, 0x0e, 0x92, 0xbd,
  0x34, 0x8d, 0xea, 0x3d, 0x81, 0x7d, 0x84, 0xbe, 0x90, 0xb9, 0xaa, 0xbc,
  0x1e, 0x5b, 0xe1, 0xbd, 0x98, 0x3e, 0x0e, 0x3d, 0xa0, 0x54, 0x30, 0xbd,
  0x5c, 0x77, 0x26, 0xbe, 0xc0, 0x22, 0xf2, 0x3d, 0x54, 0xaa, 0x99, 0xbe,
  0x24, 0xc5, 0x3f, 0xbe, 0x20, 0x9a, 0xb1, 0xbe, 0xa8, 0x88, 0x52, 0x3d,
  0xa4, 0x4f, 0x1f, 0xbe, 0x32, 0x43, 0x03, 0x3e, 0xd3, 0x14, 0x55, 0xbe,
  0xef, 0xfa, 0x74, 0xbe, 0x64, 0x03, 0x85, 0xbe, 0x04, 0x5e, 0x96, 0xbd,
  0x3f, 0x5b, 0x85, 0xbe, 0x6f, 0xb1, 0x9f, 0xbe, 0x80, 0x2c, 0x9a, 0x3b,
  0x9b, 0x15, 0x94, 0x3e, 0xdd, 0xd3, 0xa9, 0x3e, 0xf0, 0x96, 0xa9, 0xbd,
  0xa8, 0xee, 0xb0, 0x3d, 0xb0, 0x83, 0x9b, 0x3c, 0x98, 0x26, 0x37, 0xbe,
  0xe0, 0x75, 0xfa, 0x3d, 0x2b, 0x14, 0x10, 0xbe, 0xd8, 0xba, 0x0b, 0x3d,
  0xe4, 0x95, 0x8f, 0x3d, 0xcb, 0x39, 0x88, 0x3e, 0x66, 0x32, 0x73, 0x3e,
  0xdd, 0x67, 0xbb, 0x3e, 0xe9, 0x0d, 0xd0, 0x3e, 0x31, 0x63, 0xc4, 0xbb,
  0xbc, 0x47, 0x1d, 0xbe, 0xfe, 0xc2, 0x7f, 0x3e, 0xe4, 0xad, 0x3f, 0xbe,
  0xea, 0x9f, 0xc3, 0x3e, 0x05, 0x25, 0xf1, 0xbd, 0xdf, 0x75, 0xb4, 0x3e,
  0x1d, 0x38, 0x94, 0xbe, 0x42, 0x65, 0xaf, 0xbc, 0xa0, 0x92, 0x25, 0x3d,
  0x20, 0x2f, 0x8e, 0x3e, 0xfc, 0xbf, 0xb3, 0xbd, 0xec, 0x83, 0x9b, 0xbe,
  0xd0, 0xda, 0xe9, 0xbe, 0x88, 0xdd, 0x1c, 0x3d, 0x47, 0xdd, 0xab, 0xbe,
  0x9b, 0x73, 0x86, 0x3e, 0x98, 0x5a, 0x55, 0x3d, 0xf3, 0x40, 0xc4, 0x3e,
  0x4d, 0x8b, 0xae, 0x3e, 0x60, 0x7c, 0x6c, 0x3d, 0xc3, 0x3e, 0x80, 0x3d,
  0x3c, 0xda, 0x38, 0x3e, 0x7c, 0x38, 0x9f, 0xbe, 0x6a, 0x8a, 0xcc, 0x3d,
  0x6e, 0x36, 0xba, 0x3e, 0x65, 0xcc, 0x31, 0xbe, 0x06, 0xbf, 0x09, 0x3e,
  0xf5, 0x44, 0x10, 0xbe, 0xa9, 0xb3, 0x88, 0x3e, 0xef, 0xbc, 0x71, 0xbe,
  0x4d, 0x36, 0xf8, 0x3d, 0xdf, 0x0e, 0xf6, 0x3d, 0xed, 0x29, 0xc0, 0x3e,
  0x49, 0x37, 0xa2, 0xbe, 0xd3, 0x27, 0x62, 0xbb, 0x6c, 0xa9, 0x48, 0x3e,
  0xb0, 0xaf, 0x8c, 0x3e, 0x80, 0xc8, 0x20, 0xbd, 0x95, 0x9a, 0x93, 0x3e,
  0xf2, 0xd9, 0x20, 0xbf, 0x97, 0x49, 0x9f, 0x3e, 0xe8, 0x78, 0x35, 0xbe,
  0x8f, 0x9c, 0x93, 0xbe, 0xcb, 0x88, 0x76, 0xbe, 0xb4, 0xef, 0x11, 0x3f,
  0xdc, 0xf8, 0x86, 0x3e, 0x41, 0x82, 0x23, 0x3e, 0x1d, 0x29, 0xac, 0xbe,
  0x71, 0xf4, 0x87, 0xbe, 0x20, 0x66, 0x89, 0xbe, 0x62, 0x44, 0x04, 0x3e,
  0x50, 0x76, 0xa6, 0xbd, 0x46, 0x5b, 0x41, 0xbe, 0x59, 0x74, 0x20, 0x3e,
  0x93, 0xc9, 0x95, 0x3e, 0x0d, 0xd3, 0xa3, 0x3e, 0x32, 0x77, 0x27, 0x3c,
  0x17, 0x4b, 0x8a, 0x3e, 0xe8, 0xaf, 0xe0, 0x3a, 0x25, 0x0c, 0x69, 0xbe,
  0xeb, 0x31, 0x88, 0xbc, 0xc7, 0xd9, 0xb0, 0x3e, 0x1f, 0x65, 0x6e, 0xbe,
  0xf5, 0x7c, 0x11, 0xbe, 0x1b, 0x78, 0xdf, 0xbe, 0x98, 0xa4, 0x28, 0xbd,
  0xea, 0x32, 0xae, 0x3d, 0x57, 0xc3, 0x67, 0xbe, 0xce, 0x1b, 0x7c, 0xbe,
  0xf7, 0x85, 0xac, 0x3e, 0x7b, 0xf4, 0xd6, 0xbc, 0x33, 0x47, 0xa5, 0x3e,
  0x18, 0x5b, 0x67, 0xbd, 0xcc, 0x5b, 0x95, 0xbe, 0xdc, 0x2d, 0xb4, 0x3d,
  0x50, 0x97, 0x9d, 0xbe, 0x57, 0xa8, 0x33, 0x3f, 0x86, 0xd0, 0x95, 0xbe,
  0xd2, 0xbd, 0xe0, 0x3e, 0xcc, 0x8a, 0x87, 0xbd, 0xd7, 0x5f, 0x16, 0xbe,
  0x71, 0xa5, 0xaa, 0xbe, 0x8c, 0xaf, 0xbd, 0xbd, 0xc0, 0xbf, 0x95, 0xbd,
  0x2a, 0x29, 0x51, 0xbe, 0xbf, 0x75, 0x1d, 0xbc, 0x7a, 0xf5, 0xa4, 0xbe,
  0xcc, 0x18, 0xed, 0xbe, 0x63, 0x13, 0x8d, 0x3e, 0xc3, 0x4e, 0x96, 0x3e,
  0xbe, 0xa0, 0xa8, 0x3d, 0x37, 0xe2, 0xd2, 0xbe, 0xbb, 0xb1, 0x92, 0x3e,
  0x8c, 0x88, 0x19, 0xbe, 0x3f, 0xee, 0xe2, 0xbc, 0xf7, 0xcd, 0x7c, 0x3e,
  0xce, 0xff, 0x26, 0xbd, 0x48, 0xbd, 0x03, 0x3d, 0xe9, 0x86, 0x97, 0x3e,
  0x9f, 0x0b, 0xb4, 0xbd, 0xde, 0x02, 0x12, 0x3e, 0x98, 0xd8, 0x00, 0x3d,
  0x3b, 0xd2, 0x99, 0x3e, 0x5f, 0x07, 0x49, 0xbf, 0xbb, 0x3c, 0x83, 0x3e,
  0xf7, 0xcb, 0xab, 0xbe, 0xb2, 0xbe, 0x81, 0xbe, 0xb3, 0x43, 0xa3, 0x3e,
  0x77, 0x9a, 0xc4, 0x3e, 0xbb, 0x11, 0xb2, 0x3e, 0x15, 0xa1, 0x08, 0x3e,
  0xfa, 0xc7, 0xf9, 0xbd, 0x5e, 0xbe, 0x66, 0xbe, 0x5f, 0x16, 0xb0, 0xbc,
  0x9b, 0xb5, 0xaf, 0x3e, 0xb0, 0x8f, 0x02, 0xbd, 0xf0, 0x30, 0xe7, 0xbe,
  0x93, 0x0f, 0x15, 0x3e, 0xb7, 0x97, 0x8f, 0xbe, 0x71, 0x28, 0x73, 0x3d,
  0x59, 0x9e, 0x0a, 0xbd, 0x60, 0xe7, 0x70, 0xbc, 0xdf, 0x61, 0x2b, 0x3e,
  0x90, 0x47, 0xd5, 0x3d, 0xde, 0x9a, 0x45, 0x3e, 0xf1, 0x2e, 0x85, 0xbe,
  0x80, 0xa5, 0x58, 0xbe, 0x8c, 0x6c, 0x7f, 0xbe, 0xe3, 0x2a, 0xab, 0xbe,
  0x2a, 0x12, 0x78, 0x3e, 0x3f, 0x0b, 0xa0, 0xbe, 0xa8, 0x92, 0x17, 0x3d,
  0xf9, 0x80, 0xaa, 0x3e, 0x98, 0x28, 0x97, 0xbe, 0x9d, 0x60, 0xa1, 0x3e,
  0x8a, 0x6b, 0x9b, 0xbe, 0xf1, 0xd6, 0x93, 0x3e, 0x6e, 0x52, 0xff, 0xbd,
  0x80, 0xa1, 0x76, 0xbe, 0xe2, 0xbf, 0x5c, 0x3e, 0xd4, 0x74, 0xbe, 0xbd,
  0x4c, 0x46, 0xa2, 0x3d, 0x8b, 0x4c, 0xa0, 0xbe, 0x65, 0x2b, 0xa9, 0xbe,
  0x70, 0x3c, 0xb6, 0xbd, 0x87, 0x9f, 0x87, 0xbe, 0x2e, 0xc6, 0x69, 0x3e,
  0xf0, 0x1b, 0x81, 0xbd, 0x2a, 0x0f, 0x6c, 0x3e, 0x00, 0xf1, 0x76, 0xbb,
  0x20, 0x22, 0x09, 0x3e, 0xae, 0x75, 0x58, 0xbe, 0x48, 0xc6, 0x92, 0xbe,
  0x84, 0x9c, 0xcb, 0x3d, 0x00, 0xfb, 0xaf, 0xbe, 0x5c, 0x91, 0x43, 0x3e,
  0x98, 0x46, 0x92, 0xbe, 0x35, 0xe8, 0x9b, 0xbe, 0x67, 0x45, 0xb7, 0xbe,
  0x80, 0x89, 0xdd, 0x3d, 0xe6, 0x46, 0xa4, 0xbe, 0x55, 0xcb, 0x4f, 0xbe,
  0xe6, 0x14, 0xd1, 0x3c, 0xab, 0x33, 0xa6, 0xbe, 0x38, 0x01, 0x9e, 0xbe,
  0x10, 0x72, 0x83, 0x3d, 0x7e, 0x81, 0x2f, 0x3e, 0xc9, 0xda, 0x41, 0xbe,
  0xb5, 0x3e, 0x14, 0xbe, 0xd0, 0x3d, 0x8e, 0xbe, 0x92, 0x99, 0x26, 0x3e,
  0xeb, 0xf3, 0x89, 0x3e, 0x87, 0x8b, 0x76, 0xbe, 0x62, 0xae, 0x72, 0xbe,
  0x7d, 0xe7, 0xaf, 0xbe, 0xf0, 0xff, 0xa2, 0xbc, 0x09, 0x23, 0x92, 0x3e,
  0xa9, 0xf8, 0xec, 0x3c, 0x26, 0x0f, 0x9e, 0xbe, 0x6f, 0x63, 0xb1, 0xbe,
  0xf6, 0x8f, 0x91, 0x3d, 0x19, 0x22, 0x75, 0xbe, 0xaf, 0x95, 0xee, 0xbd,
  0xc9, 0xbd, 0x3a, 0xbe, 0xb4, 0xe0, 0x8e, 0x3e, 0xf2, 0xf3, 0x97, 0xbe,
  0xff, 0xf0, 0x87, 0x3e, 0x9a, 0xd5, 0x26, 0x3e, 0xf7, 0x51, 0x55, 0xbe,
  0x16, 0x48, 0x2b, 0x3e, 0xc1, 0xac, 0x5b, 0xbe, 0x25, 0x23, 0x33, 0xbe,
  0x48, 0x19, 0x2c, 0xbe, 0xe5, 0x1e, 0xa6, 0x3e, 0xaa, 0xe6, 0xaa, 0xbe,
  0xd7, 0xc7, 0xb4, 0xbe, 0x30, 0x3b, 0x54, 0xbe, 0xbe, 0xad, 0x79, 0x3e,
  0x6a, 0xd8, 0xa3, 0xbe, 0xd0, 0x37, 0x5e, 0xbd, 0xf1, 0x63, 0x9b, 0x3e,
  0x0a, 0xaf, 0xa7, 0xbe, 0xa0, 0x28, 0x19, 0x3d, 0xa6, 0x32, 0x9b, 0xbe,
  0x72, 0xc5, 0xe6, 0xbd, 0x58, 0xcb, 0x23, 0xbe, 0xde, 0x72, 0x06, 0x3e,
  0x88, 0x30, 0xcd, 0x3d, 0x9b, 0x38, 0x60, 0xbe, 0x10, 0x59, 0x53, 0x3d,
  0x26, 0x89, 0x50, 0x3e, 0x66, 0x61, 0x29, 0x3e, 0x1a, 0x67, 0x03, 0xbe,
  0xea, 0x1f, 0x28, 0x3e, 0x90, 0x2b, 0x5f, 0x3d, 0x48, 0x2e, 0xd8, 0x3d,
  0xc0, 0x50, 0x6e, 0xbe, 0x3b, 0x31, 0x8b, 0x3e, 0xf0, 0xb5, 0x4e, 0xbd,
  0xa4, 0x3f, 0xde, 0x3e, 0x59, 0x31, 0xc6, 0xbd, 0x29, 0xdf, 0x8d, 0x3e,
  0x68, 0xbf, 0xae, 0x3e, 0xe4, 0x92, 0x76, 0xbe, 0x12, 0x36, 0x83, 0xbe,
  0x52, 0xb3, 0x6a, 0x3e, 0xeb, 0xb6, 0x68, 0xbc, 0xfd, 0x9a, 0xb3, 0xbd,
  0x95, 0xb5, 0x35, 0xbe, 0xbb, 0x0f, 0x9e, 0x3e, 0x74, 0x87, 0x9e, 0xbe,
  0xea, 0x51, 0x5d, 0x3f, 0x7a, 0xae, 0x31, 0xbe, 0xab, 0x6a, 0xa3, 0x3e,
  0x60, 0x5f, 0xc2, 0x3d, 0xd4, 0xb3, 0xa0, 0x3d, 0xea, 0xb2, 0x14, 0x3f,
  0x94, 0xf0, 0x42, 0xbe, 0x76, 0x13, 0xc2, 0x3e, 0x95, 0x8d, 0x01, 0xbe,
  0x36, 0x30, 0xe2, 0xbd, 0x9b, 0x33, 0xb4, 0x3e, 0x27, 0xbb, 0xaa, 0x3e,
  0x6e, 0x43, 0x7e, 0x3e, 0x31, 0xed, 0xf1, 0x3e, 0xe2, 0xd3, 0x6b, 0xbe,
  0xdf, 0x77, 0xb2, 0x3e, 0x15, 0x13, 0xf8, 0xbe, 0xb8, 0x0b, 0x61, 0xbe,
  0x14, 0x46, 0xa2, 0xbd, 0x39, 0xb5, 0x3c, 0x3d, 0x6e, 0xa8, 0x91, 0x3e,
  0x2e, 0x01, 0x79, 0x3e, 0xad, 0x49, 0x0b, 0x3e, 0xce, 0x3d, 0xf1, 0xbd,
  0xef, 0x88, 0x35, 0xbe, 0x9f, 0x87, 0xeb, 0x3d, 0x25, 0x48, 0x96, 0xbe,
  0xd1, 0xe5, 0x8f, 0xbe, 0xa2, 0xc0, 0xea, 0x3c, 0x18, 0xfd, 0x84, 0xbe,
  0x72, 0xab, 0xd8, 0xbd, 0x70, 0xb4, 0xab, 0xbe, 0xfc, 0xcf, 0xca, 0xbd,
  0xcb, 0xf2, 0x8b, 0x3e, 0xf8, 0xd4, 0x71, 0xbe, 0x70, 0x7e, 0x8f, 0xbe,
  0x13, 0xb9, 0xac, 0x3e, 0xab, 0xad, 0xdc, 0xbd, 0x56, 0x4c, 0x5d, 0xbe,
  0x76, 0x3f, 0x35, 0x3e, 0xd1, 0xb1, 0x39, 0xbe, 0x65, 0xe3, 0xf6, 0x3c,
  0xa8, 0xcc, 0xab, 0xbe, 0x8a, 0x2c, 0x33, 0x3e, 0x2e, 0x2d, 0x54, 0xbe,
  0x78, 0xe6, 0xb5, 0x3d, 0x6e, 0x1b, 0x2e, 0x3e, 0x20, 0x69, 0xfe, 0x3c,
  0x75, 0xe4, 0xc5, 0xbe, 0x35, 0x69, 0xb0, 0x3d, 0x8a, 0xf2, 0xfc, 0xbd,
  0x26, 0x88, 0xf0, 0x3c, 0x3a, 0x55, 0x74, 0xbe, 0x8a, 0x90, 0x5e, 0x3e,
  0x15, 0x46, 0x97, 0xbe, 0x00, 0x2d, 0x78, 0x3d, 0x1e, 0x44, 0x15, 0x3e,
  0xa0, 0x4b, 0x5d, 0xbd, 0x96, 0x15, 0x42, 0x3e, 0x18, 0x09, 0x79, 0x3d,
  0xe8, 0xb7, 0xfa, 0xbd, 0xef, 0x20, 0x85, 0xbe, 0x01, 0xcf, 0xb3, 0xbe,
  0xd0, 0x5e, 0xa1, 0xbe, 0x00, 0x73, 0x81, 0xbe, 0x1f, 0x46, 0x94, 0x3e,
  0xe9, 0xed, 0xb0, 0xbe, 0xe0, 0xb0, 0xa2, 0xbe, 0xe3, 0x9b, 0x97, 0x3e,
  0xb4, 0x62, 0xb6, 0xbd, 0x7e, 0x17, 0x13, 0xbe, 0x3d, 0x88, 0x80, 0x3e,
  0x0e, 0x7c, 0x75, 0x3e, 0xac, 0x08, 0x0d, 0xbe, 0x16, 0xa9, 0x42, 0xbe,
  0x00, 0x1e, 0xb7, 0xbd, 0xa5, 0x67, 0x59, 0xbe, 0x11, 0x42, 0x98, 0x3e,
  0x36, 0x31, 0xb3, 0xbe, 0x65, 0x3e, 0x8c, 0x3e, 0x8a, 0x14, 0x50, 0xbe,
  0x78, 0x43, 0xbf, 0xbd, 0x00, 0x22, 0x34, 0xba, 0xc0, 0xbd, 0x85, 0x3c,
  0x00, 0x00, 0x00, 0x00, 0xd6, 0xfc, 0xff, 0xff, 0x04, 0x00, 0x00, 0x00,
  0x00, 0x02, 0x00, 0x00, 0x00, 0x4e, 0x3d, 0x3e, 0x52, 0xc1, 0x87, 0x3e,
  0x50, 0xb6, 0x35, 0xbe, 0xa5, 0x7c, 0x18, 0xc0, 0x3b, 0x84, 0x9f, 0x3e,
  0x9e, 0x0d, 0xb6, 0xbc, 0xa5, 0x8d, 0xd8, 0x3e, 0xc7, 0x0d, 0xa8, 0x3f,
  0x8b, 0xc4, 0x0b, 0x3f, 0xd5, 0x4e, 0x59, 0x3e, 0xc7, 0xb5, 0xd5, 0x3e,
  0x05, 0xc0, 0x8f, 0xbf, 0x0a, 0xed, 0x6a, 0x3d, 0x47, 0x24, 0xb2, 0x3d,
  0x46, 0xaf, 0xda, 0x3e, 0x32, 0xb3, 0xd7, 0xbf, 0xc0, 0xdd, 0x0b, 0xbe,
  0x4d, 0xec, 0x8c, 0xbe, 0x0b, 0x1a, 0x9b, 0x3e, 0xfe, 0x82, 0xbb, 0xbe,
  0xb6, 0xc5, 0x8e, 0x3d, 0xc4, 0x8d, 0x46, 0xbe, 0x4f, 0x00, 0x5f, 0x3e,
  0x21, 0x4c, 0x92, 0x3f, 0xb2, 0x4f, 0x93, 0xbe, 0xca, 0xc0, 0xb4, 0xbe,
  0x56, 0x2b, 0x33, 0xbe, 0x38, 0x6a, 0xce, 0xbe, 0xce, 0xac, 0x19, 0x3e,
  0x33, 0xf5, 0x94, 0x3e, 0xe2, 0xd4, 0x7a, 0x3d, 0xfe, 0xa9, 0xdf, 0x3f,
  0x80, 0x16, 0xa6, 0x3e, 0x44, 0x20, 0x4a, 0xbe, 0x35, 0x2b, 0xd1, 0x3e,
  0xf9, 0x81, 0x82, 0xbe, 0x9b, 0x58, 0xd1, 0xbd, 0xc1, 0x0c, 0x1b, 0x3e,
  0xb5, 0x0c, 0x0c, 0xbf, 0xa2, 0xbe, 0x60, 0xbe, 0xa4, 0x99, 0x3b, 0xbe,
  0xa1, 0x09, 0x81, 0xbe, 0xf8, 0x33, 0x91, 0x3e, 0x6a, 0x38, 0xa5, 0xbe,
  0x63, 0x54, 0xa7, 0x3e, 0x2b, 0x4f, 0x0e, 0x3e, 0x74, 0xe6, 0xa6, 0x3e,
  0x51, 0x4d, 0x0c, 0x40, 0xe1, 0x78, 0xc8, 0xbe, 0xa7, 0x42, 0x97, 0xbd,
  0x92, 0x3d, 0xb4, 0x3e, 0x34, 0x2b, 0x82, 0xbf, 0x7c, 0x23, 0xd4, 0xbd,
  0xef, 0x2f, 0x96, 0xbe, 0x50, 0x0d, 0x5e, 0x3d, 0x88, 0x21, 0xd0, 0xbe,
  0xb5, 0x0d, 0x85, 0xbe, 0x76, 0x66, 0x91, 0x3e, 0x9a, 0xa9, 0x42, 0xbd,
  0x8f, 0x73, 0x13, 0xc0, 0x99, 0xe5, 0x4f, 0xbe, 0xae, 0xaa, 0x94, 0xbe,
  0x48, 0x87, 0x07, 0xbd, 0xa0, 0x14, 0x4e, 0x3e, 0x80, 0x0c, 0xdd, 0x3c,
  0xe9, 0xf0, 0x70, 0xbe, 0xd0, 0xca, 0xc4, 0xbd, 0x36, 0x31, 0xcc, 0x3e,
  0xf6, 0xfb, 0xff, 0x3e, 0x56, 0xc0, 0x2e, 0xbd, 0x50, 0x93, 0xf2, 0xbe,
  0xaf, 0x87, 0x00, 0x40, 0xde, 0xf0, 0x0d, 0xbe, 0xc5, 0xf6, 0xa1, 0x3e,
  0xfb, 0x66, 0x83, 0x3e, 0xaa, 0x02, 0x93, 0x3f, 0x84, 0xd6, 0xf0, 0x3e,
  0x57, 0x0d, 0xa9, 0x3d, 0x28, 0x58, 0xb5, 0xbe, 0x63, 0x23, 0x3a, 0x3f,
  0xec, 0x3c, 0xa1, 0xbd, 0x14, 0x19, 0xc9, 0xbd, 0xd0, 0x29, 0xc4, 0xbd,
  0xa0, 0xa2, 0x66, 0x3e, 0x3f, 0xd2, 0x71, 0x3d, 0xca, 0xff, 0x90, 0x3e,
  0x55, 0x46, 0x3d, 0xbe, 0xc0, 0x22, 0xa4, 0xbf, 0x31, 0x5d, 0xb3, 0x3d,
  0x0f, 0xe5, 0xa3, 0x3e, 0xaf, 0x31, 0xe5, 0xbd, 0xd4, 0x69, 0x17, 0xc0,
  0xf2, 0xcb, 0xbb, 0xbe, 0x88, 0x05, 0xe8, 0xbd, 0x2b, 0x17, 0xb6, 0xbe,
  0x8c, 0xd7, 0x8b, 0x3d, 0xb3, 0xb4, 0xae, 0xbe, 0xce, 0xbd, 0x54, 0xbe,
  0x69, 0x49, 0x51, 0xbe, 0x92, 0x97, 0x9d, 0x3e, 0x26, 0xf8, 0xde, 0x3e,
  0x0b, 0xff, 0x92, 0xbe, 0x15, 0x2a, 0xc3, 0x3e, 0x88, 0x1d, 0x25, 0xc0,
  0xcd, 0x4b, 0xbb, 0xbd, 0x36, 0xb4, 0x2f, 0x3e, 0x2e, 0x55, 0x60, 0x3d,
  0xd8, 0xa9, 0x65, 0x3f, 0x2e, 0xd2, 0x57, 0xbe, 0x17, 0x2f, 0x6f, 0xbc,
  0x72, 0xd1, 0x18, 0x3d, 0xe2, 0x7c, 0x24, 0xbe, 0xfc, 0x25, 0x72, 0xbe,
  0x02, 0x2b, 0xc7, 0xbc, 0xec, 0x4b, 0xeb, 0x3e, 0xf9, 0xa2, 0xf0, 0x3f,
  0x93, 0x85, 0x9a, 0x3e, 0xae, 0x43, 0xa4, 0x3e, 0x31, 0x77, 0x9a, 0x3e,
  0x93, 0x52, 0x6b, 0x3e, 0x50, 0xa8, 0x84, 0xbe, 0x6e, 0x59, 0x37, 0xbe,
  0x25, 0x80, 0x47, 0xbe, 0x24, 0x32, 0x3f, 0x3e, 0x9c, 0x49, 0x9b, 0x3e,
  0x05, 0x9a, 0x9f, 0x3e, 0x0c, 0x0a, 0xf4, 0x3d, 0xcf, 0x84, 0x2b, 0x3f,
  0x00, 0x00, 0x00, 0x00, 0xe6, 0xfe, 0xff, 0xff, 0x04, 0x00, 0x00, 0x00,
  0x80, 0x00, 0x00, 0x00, 0xf9, 0x4f, 0x3b, 0x3d, 0xa6, 0x59, 0x41, 0xbc,
  0x70, 0x3e, 0x0b, 0x3d, 0xf7, 0x01, 0x81, 0x3d, 0xd6, 0x46, 0x5c, 0xbb,
  0x0a, 0x7a, 0x9d, 0xbd, 0x00, 0x00, 0x00, 0x00, 0x4b, 0xc2, 0x77, 0xbd,
  0xce, 0x2c, 0xb4, 0xbc, 0x65, 0x64, 0x77, 0xbd, 0x00, 0x00, 0x00, 0x00,
  0x32, 0x40, 0x24, 0xbd, 0x82, 0xb3, 0x14, 0x3d, 0x00, 0x00, 0x00, 0x00,
  0xe2, 0x18, 0x00, 0x3d, 0x00, 0x00, 0x00, 0x00, 0x00, 0x00, 0x00, 0x00,
  0xc1, 0x47, 0x9a, 0xbc, 0x5c, 0xa3, 0x79, 0x3c, 0xac, 0x96, 0xae, 0xbb,
  0x00, 0x00, 0x00, 0x00, 0xa1, 0x06, 0xe7, 0xbb, 0xe1, 0x3c, 0x59, 0x3d,
  0x00, 0x00, 0x00, 0x00, 0x00, 0x00, 0x00, 0x00, 0x5f, 0x3b, 0x12, 0x3d,
  0x20, 0xf1, 0x1d, 0x3d, 0xb4, 0x4a, 0xb9, 0xbc, 0xa5, 0x20, 0x04, 0xbd,
  0xa4, 0x7e, 0x7e, 0xbd, 0x00, 0x00, 0x00, 0x00, 0xbe, 0x00, 0x83, 0xbd,
  0x00, 0x00, 0x00, 0x00, 0x76, 0xff, 0xff, 0xff, 0x04, 0x00, 0x00, 0x00,
  0x40, 0x00, 0x00, 0x00, 0x00, 0x00, 0x00, 0x00, 0x00, 0x00, 0x00, 0x00,
  0xac, 0xce, 0x40, 0x3d, 0x1f, 0xbe, 0x4c, 0xbd, 0x45, 0x69, 0x20, 0xbd,
  0x00, 0x00, 0x00, 0x00, 0xf5, 0x50, 0xa3, 0x3d, 0xd6, 0x05, 0x55, 0xbc,
  0x9a, 0x2b, 0x25, 0xbd, 0x29, 0xb2, 0xfb, 0xbb, 0x00, 0x00, 0x00, 0x00,
  0xf1, 0xaf, 0x97, 0xbc, 0x00, 0x00, 0x00, 0x00, 0x08, 0xf7, 0xf1, 0x3c,
  0x82, 0x97, 0xf2, 0xbc, 0x00, 0x00, 0x00, 0x00, 0x00, 0x00, 0x00, 0x00,
  0xc6, 0xff, 0xff, 0xff, 0x04, 0x00, 0x00, 0x00, 0x20, 0x00, 0x00, 0x00,
  0xea, 0xb3, 0xb5, 0xbb, 0xdf, 0x96, 0x96, 0x3c, 0xef, 0xf1, 0x0a, 0xbd,
  0x3d, 0x62, 0x1e, 0xbe, 0xc8, 0xe4, 0x57, 0xbe, 0x1d, 0xae, 0xd3, 0xbd,
  0x40, 0x5b, 0x9e, 0xbd, 0xe2, 0x7e, 0xa6, 0xbd, 0x00, 0x00, 0x00, 0x00,
  0x00, 0x00, 0x00, 0x00, 0x00, 0x00, 0x00, 0x00, 0x00, 0x00, 0x06, 0x00,
  0x08, 0x00, 0x04, 0x00, 0x06, 0x00, 0x00, 0x00, 0x04, 0x00, 0x00, 0x00,
  0x08, 0x00, 0x00, 0x00, 0xda, 0xcb, 0xaf, 0xbf, 0xc5, 0xfb, 0xcf, 0xbf,
  0x00, 0x00, 0x00, 0x00, 0x84, 0xf8, 0xff, 0xff, 0x00, 0x00, 0x00, 0x00,
  0x00, 0x00, 0x00, 0x00, 0x00, 0x00, 0x00, 0x00, 0x94, 0xf8, 0xff, 0xff,
  0x00, 0x00, 0x00, 0x00, 0x00, 0x00, 0x00, 0x00, 0x00, 0x00, 0x00, 0x00,
  0x0f, 0x00, 0x00, 0x00, 0x4d, 0x4c, 0x49, 0x52, 0x20, 0x43, 0x6f, 0x6e,
  0x76, 0x65, 0x72, 0x74, 0x65, 0x64, 0x2e, 0x00, 0x01, 0x00, 0x00, 0x00,
  0x14, 0x00, 0x00, 0x00, 0x00, 0x00, 0x0e, 0x00, 0x18, 0x00, 0x04, 0x00,
  0x08, 0x00, 0x0c, 0x00, 0x10, 0x00, 0x14, 0x00, 0x0e, 0x00, 0x00, 0x00,
  0x88, 0x01, 0x00, 0x00, 0x7c, 0x01, 0x00, 0x00, 0x70, 0x01, 0x00, 0x00,
  0x14, 0x00, 0x00, 0x00, 0x04, 0x00, 0x00, 0x00, 0x04, 0x00, 0x00, 0x00,
  0x6d, 0x61, 0x69, 0x6e, 0x00, 0x00, 0x00, 0x00, 0x06, 0x00, 0x00, 0x00,
  0x18, 0x01, 0x00, 0x00, 0xd0, 0x00, 0x00, 0x00, 0x8c, 0x00, 0x00, 0x00,
  0x68, 0x00, 0x00, 0x00, 0x28, 0x00, 0x00, 0x00, 0x04, 0x00, 0x00, 0x00,
  0xae, 0xff, 0xff, 0xff, 0x01, 0x00, 0x00, 0x00, 0x10, 0x00, 0x00, 0x00,
  0x04, 0x00, 0x00, 0x00, 0x01, 0x00, 0x00, 0x00, 0x0e, 0x00, 0x00, 0x00,
  0x01, 0x00, 0x00, 0x00, 0x0d, 0x00, 0x00, 0x00, 0x72, 0xff, 0xff, 0xff,
  0x00, 0x00, 0x00, 0x08, 0x18, 0x00, 0x00, 0x00, 0x0c, 0x00, 0x00, 0x00,
  0x04, 0x00, 0x00, 0x00, 0x44, 0xf9, 0xff, 0xff, 0x01, 0x00, 0x00, 0x00,
  0x0d, 0x00, 0x00, 0x00, 0x03, 0x00, 0x00, 0x00, 0x0c, 0x00, 0x00, 0x00,
  0x08, 0x00, 0x00, 0x00, 0x01, 0x00, 0x00, 0x00, 0x00, 0x00, 0x0a, 0x00,
  0x10, 0x00, 0x04, 0x00, 0x08, 0x00, 0x0c, 0x00, 0x0a, 0x00, 0x00, 0x00,
  0x01, 0x00, 0x00, 0x00, 0x10, 0x00, 0x00, 0x00, 0x04, 0x00, 0x00, 0x00,
  0x01, 0x00, 0x00, 0x00, 0x0c, 0x00, 0x00, 0x00, 0x01, 0x00, 0x00, 0x00,
  0x0b, 0x00, 0x00, 0x00, 0xce, 0xff, 0xff, 0xff, 0x00, 0x00, 0x00, 0x08,
  0x18, 0x00, 0x00, 0x00, 0x0c, 0x00, 0x00, 0x00, 0x04, 0x00, 0x00, 0x00,
  0xa0, 0xf9, 0xff, 0xff, 0x01, 0x00, 0x00, 0x00, 0x0b, 0x00, 0x00, 0x00,
  0x03, 0x00, 0x00, 0x00, 0x0a, 0x00, 0x00, 0x00, 0x07, 0x00, 0x00, 0x00,
  0x02, 0x00, 0x00, 0x00, 0x00, 0x00, 0x0e, 0x00, 0x14, 0x00, 0x00, 0x00,
  0x08, 0x00, 0x0c, 0x00, 0x07, 0x00, 0x10, 0x00, 0x0e, 0x00, 0x00, 0x00,
  0x00, 0x00, 0x00, 0x08, 0x1c, 0x00, 0x00, 0x00, 0x10, 0x00, 0x00, 0x00,
  0x04, 0x00, 0x00, 0x00, 0xba, 0xff, 0xff, 0xff, 0x00, 0x00, 0x00, 0x01,
  0x01, 0x00, 0x00, 0x00, 0x0a, 0x00, 0x00, 0x00, 0x03, 0x00, 0x00, 0x00,
  0x09, 0x00, 0x00, 0x00, 0x06, 0x00, 0x00, 0x00, 0x03, 0x00, 0x00, 0x00,
  0x00, 0x00, 0x0e, 0x00, 0x16, 0x00, 0x00, 0x00, 0x08, 0x00, 0x0c, 0x00,
  0x07, 0x00, 0x10, 0x00, 0x0e, 0x00, 0x00, 0x00, 0x00, 0x00, 0x00, 0x08,
  0x24, 0x00, 0x00, 0x00, 0x18, 0x00, 0x00, 0x00, 0x0c, 0x00, 0x00, 0x00,
  0x00, 0x00, 0x06, 0x00, 0x08, 0x00, 0x07, 0x00, 0x06, 0x00, 0x00, 0x00,
  0x00, 0x00, 0x00, 0x01, 0x01, 0x00, 0x00, 0x00, 0x09, 0x00, 0x00, 0x00,
  0x03, 0x00, 0x00, 0x00, 0x00, 0x00, 0x00, 0x00, 0x05, 0x00, 0x00, 0x00,
  0x04, 0x00, 0x00, 0x00, 0x01, 0x00, 0x00, 0x00, 0x0e, 0x00, 0x00, 0x00,
  0x01, 0x00, 0x00, 0x00, 0x00, 0x00, 0x00, 0x00, 0x0f, 0x00, 0x00, 0x00,
  0x7c, 0x05, 0x00, 0x00, 0x08, 0x05, 0x00, 0x00, 0x98, 0x04, 0x00, 0x00,
  0x38, 0x04, 0x00, 0x00, 0xd8, 0x03, 0x00, 0x00, 0x90, 0x03, 0x00, 0x00,
  0x48, 0x03, 0x00, 0x00, 0x00, 0x03, 0x00, 0x00, 0xb8, 0x02, 0x00, 0x00,
  0x28, 0x02, 0x00, 0x00, 0x98, 0x01, 0x00, 0x00, 0x20, 0x01, 0x00, 0x00,
  0xc4, 0x00, 0x00, 0x00, 0x4c, 0x00, 0x00, 0x00, 0x04, 0x00, 0x00, 0x00,
  0xd4, 0xfa, 0xff, 0xff, 0x34, 0x00, 0x00, 0x00, 0x0f, 0x00, 0x00, 0x00,
  0x1c, 0x00, 0x00, 0x00, 0x14, 0x00, 0x00, 0x00, 0x04, 0x00, 0x00, 0x00,
  0x02, 0x00, 0x00, 0x00, 0xff, 0xff, 0xff, 0xff, 0x02, 0x00, 0x00, 0x00,
  0xc0, 0xfa, 0xff, 0xff, 0x08, 0x00, 0x00, 0x00, 0x49, 0x64, 0x65, 0x6e,
  0x74, 0x69, 0x74, 0x79, 0x00, 0x00, 0x00, 0x00, 0x02, 0x00, 0x00, 0x00,
  0x01, 0x00, 0x00, 0x00, 0x02, 0x00, 0x00, 0x00, 0x18, 0xfb, 0xff, 0xff,
  0x64, 0x00, 0x00, 0x00, 0x0e, 0x00, 0x00, 0x00, 0x1c, 0x00, 0x00, 0x00,
  0x14, 0x00, 0x00, 0x00, 0x04, 0x00, 0x00, 0x00, 0x02, 0x00, 0x00, 0x00,
  0xff, 0xff, 0xff, 0xff, 0x02, 0x00, 0x00, 0x00, 0x04, 0xfb, 0xff, 0xff,
  0x38, 0x00, 0x00, 0x00, 0x73, 0x65, 0x71, 0x75, 0x65, 0x6e, 0x74, 0x69,
  0x61, 0x6c, 0x5f, 0x31, 0x2f, 0x64, 0x65, 0x6e, 0x73, 0x65, 0x5f, 0x37,
  0x2f, 0x4d, 0x61, 0x74, 0x4d, 0x75, 0x6c, 0x3b, 0x73, 0x65, 0x71, 0x75,
  0x65, 0x6e, 0x74, 0x69, 0x61, 0x6c, 0x5f, 0x31, 0x2f, 0x64, 0x65, 0x6e,
  0x73, 0x65, 0x5f, 0x37, 0x2f, 0x42, 0x69, 0x61, 0x73, 0x41, 0x64, 0x64,
  0x00, 0x00, 0x00, 0x00, 0x02, 0x00, 0x00, 0x00, 0x01, 0x00, 0x00, 0x00,
  0x02, 0x00, 0x00, 0x00, 0x8c, 0xfb, 0xff, 0xff, 0x48, 0x00, 0x00, 0x00,
  0x0d, 0x00, 0x00, 0x00, 0x1c, 0x00, 0x00, 0x00, 0x14, 0x00, 0x00, 0x00,
  0x04, 0x00, 0x00, 0x00, 0x02, 0x00, 0x00, 0x00, 0xff, 0xff, 0xff, 0xff,
  0x08, 0x00, 0x00, 0x00, 0x78, 0xfb, 0xff, 0xff, 0x1c, 0x00, 0x00, 0x00,
  0x73, 0x65, 0x71, 0x75, 0x65, 0x6e, 0x74, 0x69, 0x61, 0x6c, 0x5f, 0x31,
  0x2f, 0x64, 0x65, 0x6e, 0x73, 0x65, 0x5f, 0x36, 0x2f, 0x53, 0x69, 0x67,
  0x6d, 0x6f, 0x69, 0x64, 0x00, 0x00, 0x00, 0x00, 0x02, 0x00, 0x00, 0x00,
  0x01, 0x00, 0x00, 0x00, 0x08, 0x00, 0x00, 0x00, 0xe4, 0xfb, 0xff, 0xff,
  0x64, 0x00, 0x00, 0x00, 0x0c, 0x00, 0x00, 0x00, 0x1c, 0x00, 0x00, 0x00,
  0x14, 0x00, 0x00, 0x00, 0x04, 0x00, 0x00, 0x00, 0x02, 0x00, 0x00, 0x00,
  0xff, 0xff, 0xff, 0xff, 0x08, 0x00, 0x00, 0x00, 0xd0, 0xfb, 0xff, 0xff,
  0x38, 0x00, 0x00, 0x00, 0x73, 0x65, 0x71, 0x75, 0x65, 0x6e, 0x74, 0x69,
  0x61, 0x6c, 0x5f, 0x31, 0x2f, 0x64, 0x65, 0x6e, 0x73, 0x65, 0x5f, 0x36,
  0x2f, 0x4d, 0x61, 0x74, 0x4d, 0x75, 0x6c, 0x3b, 0x73, 0x65, 0x71, 0x75,
  0x65, 0x6e, 0x74, 0x69, 0x61, 0x6c, 0x5f, 0x31, 0x2f, 0x64, 0x65, 0x6e,
  0x73, 0x65, 0x5f, 0x36, 0x2f, 0x42, 0x69, 0x61, 0x73, 0x41, 0x64, 0x64,
  0x00, 0x00, 0x00, 0x00, 0x02, 0x00, 0x00, 0x00, 0x01, 0x00, 0x00, 0x00,
  0x08, 0x00, 0x00, 0x00, 0x58, 0xfc, 0xff, 0xff, 0x7c, 0x00, 0x00, 0x00,
  0x0b, 0x00, 0x00, 0x00, 0x1c, 0x00, 0x00, 0x00, 0x14, 0x00, 0x00, 0x00,
  0x04, 0x00, 0x00, 0x00, 0x02, 0x00, 0x00, 0x00, 0xff, 0xff, 0xff, 0xff,
  0x10, 0x00, 0x00, 0x00, 0x44, 0xfc, 0xff, 0xff, 0x52, 0x00, 0x00, 0x00,
  0x73, 0x65, 0x71, 0x75, 0x65, 0x6e, 0x74, 0x69, 0x61, 0x6c, 0x5f, 0x31,
  0x2f, 0x64, 0x65, 0x6e, 0x73, 0x65, 0x5f, 0x35, 0x2f, 0x4d, 0x61, 0x74,
  0x4d, 0x75, 0x6c, 0x3b, 0x73, 0x65, 0x71, 0x75, 0x65, 0x6e, 0x74, 0x69,
  0x61, 0x6c, 0x5f, 0x31, 0x2f, 0x64, 0x65, 0x6e, 0x73, 0x65, 0x5f, 0x35,
  0x2f, 0x52, 0x65, 0x6c, 0x75, 0x3b, 0x73, 0x65, 0x71, 0x75, 0x65, 0x6e,
  0x74, 0x69, 0x61, 0x6c, 0x5f, 0x31, 0x2f, 0x64, 0x65, 0x6e, 0x73, 0x65,
  0x5f, 0x35, 0x2f, 0x42, 0x69, 0x61, 0x73, 0x41, 0x64, 0x64, 0x00, 0x00,
  0x02, 0x00, 0x00, 0x00, 0x01, 0x00, 0x00, 0x00, 0x10, 0x00, 0x00, 0x00,
  0xe4, 0xfc, 0xff, 0xff, 0x7c, 0x00, 0x00, 0x00, 0x0a, 0x00, 0x00, 0x00,
  0x1c, 0x00, 0x00, 0x00, 0x14, 0x00, 0x00, 0x00, 0x04, 0x00, 0x00, 0x00,
  0x02, 0x00, 0x00, 0x00, 0xff, 0xff, 0xff, 0xff, 0x20, 0x00, 0x00, 0x00,
  0xd0, 0xfc, 0xff, 0xff, 0x52, 0x00, 0x00, 0x00, 0x73, 0x65, 0x71, 0x75,
  0x65, 0x6e, 0x74, 0x69, 0x61, 0x6c, 0x5f, 0x31, 0x2f, 0x64, 0x65, 0x6e,
  0x73, 0x65, 0x5f, 0x34, 0x2f, 0x4d, 0x61, 0x74, 0x4d, 0x75, 0x6c, 0x3b,
  0x73, 0x65, 0x71, 0x75, 0x65, 0x6e, 0x74, 0x69, 0x61, 0x6c, 0x5f, 0x31,
  0x2f, 0x64, 0x65, 0x6e, 0x73, 0x65, 0x5f, 0x34, 0x2f, 0x52, 0x65, 0x6c,
  0x75, 0x3b, 0x73, 0x65, 0x71, 0x75, 0x65, 0x6e, 0x74, 0x69, 0x61, 0x6c,
  0x5f, 0x31, 0x2f, 0x64, 0x65, 0x6e, 0x73, 0x65, 0x5f, 0x34, 0x2f, 0x42,
  0x69, 0x61, 0x73, 0x41, 0x64, 0x64, 0x00, 0x00, 0x02, 0x00, 0x00, 0x00,
  0x01, 0x00, 0x00, 0x00, 0x20, 0x00, 0x00, 0x00, 0xda, 0xfd, 0xff, 0xff,
  0x34, 0x00, 0x00, 0x00, 0x09, 0x00, 0x00, 0x00, 0x0c, 0x00, 0x00, 0x00,
  0x04, 0x00, 0x00, 0x00, 0x4c, 0xfd, 0xff, 0xff, 0x1b, 0x00, 0x00, 0x00,
  0x73, 0x65, 0x71, 0x75, 0x65, 0x6e, 0x74, 0x69, 0x61, 0x6c, 0x5f, 0x31,
  0x2f, 0x64, 0x65, 0x6e, 0x73, 0x65, 0x5f, 0x37, 0x2f, 0x4d, 0x61, 0x74,
  0x4d, 0x75, 0x6c, 0x00, 0x02, 0x00, 0x00, 0x00, 0x02, 0x00, 0x00, 0x00,
  0x08, 0x00, 0x00, 0x00, 0x1e, 0xfe, 0xff, 0xff, 0x34, 0x00, 0x00, 0x00,
  0x08, 0x00, 0x00, 0x00, 0x0c, 0x00, 0x00, 0x00, 0x04, 0x00, 0x00, 0x00,
  0x90, 0xfd, 0xff, 0xff, 0x1b, 0x00, 0x00, 0x00, 0x73, 0x65, 0x71, 0x75,
  0x65, 0x6e, 0x74, 0x69, 0x61, 0x6c, 0x5f, 0x31, 0x2f, 0x64, 0x65, 0x6e,
  0x73, 0x65, 0x5f, 0x36, 0x2f, 0x4d, 0x61, 0x74, 0x4d, 0x75, 0x6c, 0x00,
  0x02, 0x00, 0x00, 0x00, 0x08, 0x00, 0x00, 0x00, 0x10, 0x00, 0x00, 0x00,
  0x62, 0xfe, 0xff, 0xff, 0x34, 0x00, 0x00, 0x00, 0x07, 0x00, 0x00, 0x00,
  0x0c, 0x00, 0x00, 0x00, 0x04, 0x00, 0x00, 0x00, 0xd4, 0xfd, 0xff, 0xff,
  0x1b, 0x00, 0x00, 0x00, 0x73, 0x65, 0x71, 0x75, 0x65, 0x6e, 0x74, 0x69,
  0x61, 0x6c, 0x5f, 0x31, 0x2f, 0x64, 0x65, 0x6e, 0x73, 0x65, 0x5f, 0x35,
  0x2f, 0x4d, 0x61, 0x74, 0x4d, 0x75, 0x6c, 0x00, 0x02, 0x00, 0x00, 0x00,
  0x10, 0x00, 0x00, 0x00, 0x20, 0x00, 0x00, 0x00, 0xa6, 0xfe, 0xff, 0xff,
  0x34, 0x00, 0x00, 0x00, 0x06, 0x00, 0x00, 0x00, 0x0c, 0x00, 0x00, 0x00,
  0x04, 0x00, 0x00, 0x00, 0x18, 0xfe, 0xff, 0xff, 0x1b, 0x00, 0x00, 0x00,
  0x73, 0x65, 0x71, 0x75, 0x65, 0x6e, 0x74, 0x69, 0x61, 0x6c, 0x5f, 0x31,
  0x2f, 0x64, 0x65, 0x6e, 0x73, 0x65, 0x5f, 0x34, 0x2f, 0x4d, 0x61, 0x74,
  0x4d, 0x75, 0x6c, 0x00, 0x02, 0x00, 0x00, 0x00, 0x20, 0x00, 0x00, 0x00,
  0x04, 0x00, 0x00, 0x00, 0xea, 0xfe, 0xff, 0xff, 0x50, 0x00, 0x00, 0x00,
  0x05, 0x00, 0x00, 0x00, 0x0c, 0x00, 0x00, 0x00, 0x04, 0x00, 0x00, 0x00,
  0x5c, 0xfe, 0xff, 0xff, 0x34, 0x00, 0x00, 0x00, 0x73, 0x65, 0x71, 0x75,
  0x65, 0x6e, 0x74, 0x69, 0x61, 0x6c, 0x5f, 0x31, 0x2f, 0x64, 0x65, 0x6e,
  0x73, 0x65, 0x5f, 0x34, 0x2f, 0x42, 0x69, 0x61, 0x73, 0x41, 0x64, 0x64,
  0x2f, 0x52, 0x65, 0x61, 0x64, 0x56, 0x61, 0x72, 0x69, 0x61, 0x62, 0x6c,
  0x65, 0x4f, 0x70, 0x2f, 0x72, 0x65, 0x73, 0x6f, 0x75, 0x72, 0x63, 0x65,
  0x00, 0x00, 0x00, 0x00, 0x01, 0x00, 0x00, 0x00, 0x20, 0x00, 0x00, 0x00,
  0x46, 0xff, 0xff, 0xff, 0x50, 0x00, 0x00, 0x00, 0x04, 0x00, 0x00, 0x00,
  0x0c, 0x00, 0x00, 0x00, 0x04, 0x00, 0x00, 0x00, 0xb8, 0xfe, 0xff, 0xff,
  0x34, 0x00, 0x00, 0x00, 0x73, 0x65, 0x71, 0x75, 0x65, 0x6e, 0x74, 0x69,
  0x61, 0x6c, 0x5f, 0x31, 0x2f, 0x64, 0x65, 0x6e, 0x73, 0x65, 0x5f, 0x35,
  0x2f, 0x42, 0x69, 0x61, 0x73, 0x41, 0x64, 0x64, 0x2f, 0x52, 0x65, 0x61,
  0x64, 0x56, 0x61, 0x72, 0x69, 0x61, 0x62, 0x6c, 0x65, 0x4f, 0x70, 0x2f,
  0x72, 0x65, 0x73, 0x6f, 0x75, 0x72, 0x63, 0x65, 0x00, 0x00, 0x00, 0x00,
  0x01, 0x00, 0x00, 0x00, 0x10, 0x00, 0x00, 0x00, 0xa2, 0xff, 0xff, 0xff,
  0x50, 0x00, 0x00, 0x00, 0x03, 0x00, 0x00, 0x00, 0x0c, 0x00, 0x00, 0x00,
  0x04, 0x00, 0x00, 0x00, 0x14, 0xff, 0xff, 0xff, 0x34, 0x00, 0x00, 0x00,
  0x73, 0x65, 0x71, 0x75, 0x65, 0x6e, 0x74, 0x69, 0x61, 0x6c, 0x5f, 0x31,
  0x2f, 0x64, 0x65, 0x6e, 0x73, 0x65, 0x5f, 0x36, 0x2f, 0x42, 0x69, 0x61,
  0x73, 0x41, 0x64, 0x64, 0x2f, 0x52, 0x65, 0x61, 0x64, 0x56, 0x61, 0x72,
  0x69, 0x61, 0x62, 0x6c, 0x65, 0x4f, 0x70, 0x2f, 0x72, 0x65, 0x73, 0x6f,
  0x75, 0x72, 0x63, 0x65, 0x00, 0x00, 0x00, 0x00, 0x01, 0x00, 0x00, 0x00,
  0x08, 0x00, 0x00, 0x00, 0x00, 0x00, 0x0e, 0x00, 0x14, 0x00, 0x04, 0x00,
  0x00, 0x00, 0x08, 0x00, 0x0c, 0x00, 0x10, 0x00, 0x0e, 0x00, 0x00, 0x00,
  0x50, 0x00, 0x00, 0x00, 0x02, 0x00, 0x00, 0x00, 0x0c, 0x00, 0x00, 0x00,
  0x04, 0x00, 0x00, 0x00, 0x80, 0xff, 0xff, 0xff, 0x34, 0x00, 0x00, 0x00,
  0x73, 0x65, 0x71, 0x75, 0x65, 0x6e, 0x74, 0x69, 0x61, 0x6c, 0x5f, 0x31,
  0x2f, 0x64, 0x65, 0x6e, 0x73, 0x65, 0x5f, 0x37, 0x2f, 0x42, 0x69, 0x61,
  0x73, 0x41, 0x64, 0x64, 0x2f, 0x52, 0x65, 0x61, 0x64, 0x56, 0x61, 0x72,
  0x69, 0x61, 0x62, 0x6c, 0x65, 0x4f, 0x70, 0x2f, 0x72, 0x65, 0x73, 0x6f,
  0x75, 0x72, 0x63, 0x65, 0x00, 0x00, 0x00, 0x00, 0x01, 0x00, 0x00, 0x00,
  0x02, 0x00, 0x00, 0x00, 0x14, 0x00, 0x18, 0x00, 0x04, 0x00, 0x00, 0x00,
  0x08, 0x00, 0x0c, 0x00, 0x10, 0x00, 0x00, 0x00, 0x00, 0x00, 0x14, 0x00,
  0x14, 0x00, 0x00, 0x00, 0x3c, 0x00, 0x00, 0x00, 0x01, 0x00, 0x00, 0x00,
  0x20, 0x00, 0x00, 0x00, 0x18, 0x00, 0x00, 0x00, 0x04, 0x00, 0x00, 0x00,
  0x02, 0x00, 0x00, 0x00, 0xff, 0xff, 0xff, 0xff, 0x04, 0x00, 0x00, 0x00,
  0x04, 0x00, 0x04, 0x00, 0x04, 0x00, 0x00, 0x00, 0x0d, 0x00, 0x00, 0x00,
  0x64, 0x65, 0x6e, 0x73, 0x65, 0x5f, 0x34, 0x5f, 0x69, 0x6e, 0x70, 0x75,
  0x74, 0x00, 0x00, 0x00, 0x02, 0x00, 0x00, 0x00, 0x01, 0x00, 0x00, 0x00,
  0x04, 0x00, 0x00, 0x00, 0x02, 0x00, 0x00, 0x00, 0x2c, 0x00, 0x00, 0x00,
  0x10, 0x00, 0x00, 0x00, 0x0c, 0x00, 0x0c, 0x00, 0x07, 0x00, 0x00, 0x00,
  0x00, 0x00, 0x08, 0x00, 0x0c, 0x00, 0x00, 0x00, 0x00, 0x00, 0x00, 0x0e,
  0x0e, 0x00, 0x00, 0x00, 0x0c, 0x00, 0x10, 0x00, 0x07, 0x00, 0x00, 0x00,
  0x08, 0x00, 0x0c, 0x00, 0x0c, 0x00, 0x00, 0x00, 0x00, 0x00, 0x00, 0x09,
  0x09, 0x00, 0x00, 0x00, 0x09, 0x00, 0x00, 0x00
};
unsigned int model_data_tflite_len = 5840;
